00.000110100001111111000101011000
11.111010101101000101000111111000
11.110010100001011101001011110000
00.000100011100110110100101110000
11.111111110001100111110000101111
00.001011100101011101010001010000
00.000011001000110010110101000100
11.111101010100101110111111000000
00.001010000010010010001101000000
11.111110000110111010010001110100
00.001000001110110001111000110000
11.101100010011000010110111100000
00.011001101101001011100001000000
00.000011110010001110010101010100
11.110010010101010001111001100000
00.001010110001111111100100000000
11.111110100101110111101110111100
11.101110001001100010001001100000
11.111011110001000010010000110000
11.111011000010010010011001010000
11.101001101010101010000000000000
00.000011011110100011111110110000
11.111000111100100101100100101000
11.101111011110001101110010100000
11.111111111110011010101111010011
11.111111010111101111010111101110
11.111011011000100000111110001000
11.111111100010100011001100011001
11.110011101011000101000011010000
11.100000111011111110000100000000
00.000100110111001100011111100000
00.001011001111010101110100000000
00.001000010010100100101000000000
00.010011100110010001011000000000
00.001001001100010011000111110000
11.110011011100100111101110000000
11.011000111110100110110011000000
00.011000111110101111011110100000
00.000000111010101010010111110011
00.001000011110110100000000010000
11.110101100110001001110111100000
00.011010101011110101100001100000
00.010001111001010111110100100000
11.110110001010000000011110100000
00.001000000100101000000000110000
00.001010101010001100111010000000
00.000110110010010011100101001000
00.010000010111000000011000100000
11.101001001111011110110010100000
00.001001011010001000000010000000
11.111110101111100011011110110000
11.101101001100010001001111100000
11.110100100100111001011111000000
00.000011000000011101000101011000
11.010100001000010111010100000000
11.101101001111111101010110000000
11.111111001001100000110101011111
11.100101101010000101011010100000
00.001101001001110011010011110000
11.100111011111110011101110000000
11.100110010101111101001000000000
11.110000111000000001001011010000
00.001000010000100000001111010000
00.000110011100000100011001101000
11.111011110110111110110000101000
00.010011010100010000110010000000
00.000010111011011000100101110000
11.100101110111100101011110000000
11.101110010111011101110101100000
00.010011111001011000010000100000
00.000100111111000010101011111000
11.110100101100100100001001100000
00.000000101101010011001011000100
00.010111000000001111111111000000
00.010010110101100000001101100000
00.010000010010011001100011000000
11.101001010001000110000001100000
00.000010001000111001011101101000
00.000010101101101010000000100100
00.010010010010001000110011100000
00.000001010010110110010000000000
00.010010100111111011110001000000
00.001010100000010011100101010000
11.101111111011010011000100100000
00.000110110011000111000010100000
00.000000111110010001010100010011
11.110000001001100001011000010000
11.101101111010000000110000000000
11.110011011110011010101110010000
11.101001000001000110000000000000
11.111110100100010000011010111100
11.100000000001111001001101100000
11.111010000001000011101100010000
00.001001111100100111100011110000
11.110111101001010110110010010000
00.010001001001010110000101000000
00.000100011010100101001010010000
00.010111110111110010011000100000
00.001111100101110110001011010000
11.111111100001110010010010100001
11.011011011011000001011100000000
11.111001100001101010010001011000
00.000101111100111000000101100000
11.110101010010001110000110100000
00.001011001110111000110110100000
11.011100111111100101000111000000
00.010111011010000100100000100000
11.101111101000011111001101100000
00.011100111110101111010100000000
00.000011000011101110101001000000
00.001101111010000011010111110000
11.101011100001001100001001000000
11.111000110111000011011001101000
11.101110011111100011110111100000
11.100111110111110011000111000000
00.001111010110010100111010010000
11.101100100000101010001111000000
11.111010011110011100010010001000
11.011000010000100100010001000000
00.000000111111000101100011000100
00.000000011111110100000010000010
00.001010000111101111100111000000
11.111010010100110010110100110000
00.010000011100110100001010000000
11.111000010110100110010111000000
11.100111111101011000001110100000
00.000011011101001000110010000000
00.010011010011001110101010000000
11.111101010011000100100000101100
00.001011110110000001000111010000
00.000100100011100100110110010000
11.111000101011111011110001000000
11.110101001001010111111100000000
00.000010010110101000001010111100
00.000011100101011011100111011100
11.111110100111111101001101001100
00.000110000000001011001011010000
11.011110011111100100101010000000
00.001110110101111011001101000000
11.110110100110001011110111100000
11.111010110101100000000100000000
11.111011011000101001011101001000
00.001111000010111001011001110000
00.000001011011000100010001011000
00.001110001001000010111011100000
11.110100011111111100111010110000
11.111111000100000011010111101101
11.110111010011100000110111110000
00.000010000000011111011010101000
00.000101100001111011101001110000
11.111101111101110010100111010000
00.000010000011110111000001111100
00.000011001000101011101001010100
00.000011011110111000000111011100
00.001101111011111011111001110000
00.010101010111011110001000000000
00.000011101110010111110001101000
00.010000011001011000101000000000
00.001100010010111110000001000000
11.111101011111011010011001101100
00.000111011101000111100000100000
11.111011001011101101111100111000
00.000011001010010010010110011100
00.000010000001001100100101101100
00.001100010001100100010111100000
00.000010000101111110000001011100
00.000001100000001011101010110110
00.000010011111100110110111001000
11.111001111101000010000011000000
00.000100101010000110000111111000
11.111001001001011000011110101000
00.010110011111000000000011000000
11.010111010110111000110011000000
00.000111001000111001100110110000
11.110110000111111011001001110000
00.011010100011101011111000000000
00.001101100010111110010010100000
00.010001101110111111111110000000
00.001001101000110101100100110000
11.101010100011001001100011100000
00.010000011111000010111001100000
00.000010100001111101010110101000
00.010011110010010110001011000000
00.000011000101000111111001100100
00.000000111111110111010100101100
00.000001100110110000010000111010
11.111110110101110010011000111110
11.110111001010010010110101010000
00.010001111110111101001110000000
00.010111101111100011000111000000
00.000001111110111110001111111010
11.111010011101100010000101101000
00.000101110011101000101010000000
00.000001000000111001100111110110
11.111011101010001011111110000000
00.001101011000101001111110100000
11.100010000111000010000010100000
11.101101000110100101000010000000
00.001011000110100110100100010000
00.001010101000010010110110010000
00.001000101111111011110001010000
00.000111010101110111111001010000
11.101010011010100011001101000000
11.110011011010001110110100010000
00.010011111101101010000111100000
00.000001110010000101001011110010
00.000011111000010000000110101000
11.100000011001010111110001000000
00.001001100111111011101001000000
11.100111101101000101110011100000
11.111100111100001101010100000100
00.010011110110100010001011000000
11.101110101011111100111110100000
00.000101101011101101011111110000
11.100010000011001011000011000000
00.010000111011100110111100100000
11.111101000111001111110011110000
00.001000101110010010111011010000
11.110001100101011100010001100000
00.000001111110001000001111000010
00.010110000101010111100111100000
00.000110011011100000101011011000
11.101100000011010111001110100000
11.100101010111100010110111000000
00.000110000101001010001011000000
11.100101010010011100000100000000
00.000110101100110011111011100000
00.001110101010110010110110000000
00.000010000011010000111100111100
11.100011011011011000101101000000
00.000000100001111101110000101001
00.001001000110001111100100000000
00.001000100001001010110111010000
11.111001001100101100011110011000
11.100010001010000010001000000000
00.000011100010010011010111110100
11.111011001010101110000000001000
00.001000111010101110100100010000
00.001001010001000000001110000000
11.100110011001010100100001000000
00.000010111101001010100111011100
11.111001110101010110000110000000
00.001010101110011000001001000000
00.011010110100100111011011000000
11.111110010001000110100000100010
00.000111011111000111001001110000
00.000101110111011101001010000000
00.001101111010101100001110100000
00.001000000010110101010110000000
00.001101010100110110011100000000
00.000000100100000000110001100110
00.010001101001111100001100100000
00.001000110111101011011010110000
00.010110010111001011010000100000
00.000110011001110010110100010000
11.101110010111110111001101100000
00.000110101101010100101110000000
11.011010000011010000111100000000
11.101110101001010000111000000000
00.001101010100100101100111100000
00.011010111111101111000111100000
11.101011001000001101101000100000
11.111001000101111111001001010000
11.111111010000000010000110010110
11.110110110100100001001011100000
11.101001011111010011100101000000
11.100011000100000000001111100000
00.001010100011010000111110000000
11.101111111110010101111101100000
00.000100110011011011110001010000
11.101001011011100000011000100000
00.001100001000000001010000000000
11.110011100100010001001010010000
00.001110001100011101101010010000
00.001000111010001001010100100000
00.000010101111001001111101010100
00.001101111110100000110101010000
00.000100000011110111110011101000
00.001111111000110001011000010000
00.001111100000011110010100000000
00.000111010001010001011001100000
00.010000111011111100111000100000
00.001100010100010011110110100000
00.001110100111100111101100100000
11.111110010001101110101000111110
11.111100000101010011111110100000
00.001010011010111100010101100000
11.111101010100101000111001101000
