11.111101011000101111000000011100
11.111110111110001101001000011110
11.111010111100010100011010101000
11.111110110101011101100110000010
00.000110110101011011010111001000
00.000100100110100111001001110000
11.111100100110010111101010010100
11.111111010011111000110001010011
11.111100100001000010000011011000
00.000110001100000001000010001000
11.111111110100011001100111001010
11.111111000001010101110110100011
11.111111111111011111000111100001
11.111011101010101110001000001000
11.111011111011111101011111000000
11.111001100111101111110111111000
11.111110110001010100110110101000
11.111111110111010000011011010110
11.111011001010001101010010010000
00.000001011000000101111100010000
11.111111011011101111000000011110
11.111101111010110000110110010100
00.001001000100100111100010110000
00.000000111110011011001000001010
11.111111101001110011010101111011
11.111111101111101100110111110001
11.111011100011011111101011010000
11.111110010010100011110100111110
11.111111000110101010011110011000
11.111001111110100111011111110000
11.111010110011011100001110111000
11.111111010111001100011011111100
