11111001110111010110101010111000
11111100101001101000111010100100
11111001001011001100110000010000
11111010011000100001101101101000
11111100101110111001110001100100
11111010000100000110111000011000
11111111011100110001110111010001
00000000011111110111001101010100
11111101000100110101111000110100
00000011000101100000000101110000
11111110001000011110000111110110
11111111101011111010011000010110
11111010111111111110111101001000
00000011100010101011000001010100
11110110010011001100010101100000
11111001010000011101110000000000
11111101000011001001111110100000
11111100110100001110010110100100
11111101000010000110111110101100
11111001100101001001010011101000
11111111110111001000000111010101
11111111001011001101101100111101
11111001101000000011100001110000
11111110010111000100110101110100
11111010111001101001010011011000
00000010011001110111100100110100
11111011000100000001110010101000
11111110011110011000011111011110
11110101111100111010100100010000
11111111000100010000000111001010
00000001010011101010111010010000
11111100000001001100010010101100
11111101001110001011010101101000
11111101010110011101111100110100
11111100110011100110011001000100
11111111011001111001001000111010
00000000010011000101000011000011
11111011110011001100100010001000
11110111100111101001101101000000
11111011010111110111000011110000
11111101001010000001110010110000
11111101111011000111010001010000
11111100100010001100000100100000
11111011000000000111011101101000
11111011010110001000001000010000
11111011001111000011001001111000
11111010000001100111110110001000
11111111000101000000101100110011
11111101101110011100001001011100
11111110100100111011000010000010
11111000000011101100101010100000
11111100111011010001111010110000
11111100100011001010000001111100
11111111110111100000010111001101
00000000011001110100011001001100
11111110010101000000101000101000
00000001000000001110100100101000
11111010100001000001100000101000
11111111101110111000101111000001
11111010011010011011011101010000
11111010001001101110001001010000
00000001000000100101010000010110
00000010010100101100111000011000
11111110010101110010110101111110
