11111101011000101111000000011100
11111110111110001101001000011110
11111010111100010100011010101000
11111110110101011101100110000010
00000110110101011011010111001000
00000100100110100111001001110000
11111100100110010111101010010100
11111111010011111000110001010011
11111100100001000010000011011000
00000110001100000001000010001000
11111111110100011001100111001010
11111111000001010101110110100011
11111111111111011111000111100001
11111011101010101110001000001000
11111011111011111101011111000000
11111001100111101111110111111000
11111110110001010100110110101000
11111111110111010000011011010110
11111011001010001101010010010000
00000001011000000101111100010000
11111111011011101111000000011110
11111101111010110000110110010100
00001001000100100111100010110000
00000000111110011011001000001010
11111111101001110011010101111011
11111111101111101100110111110001
11111011100011011111101011010000
11111110010010100011110100111110
11111111000110101010011110011000
11111001111110100111011111110000
11111010110011011100001110111000
11111111010111001100011011111100
