00.000001001001011001100010110000
00.001011000110100010011011010000
11.111101100111011000101001110000
11.111100100101010001110111110000
11.111010111001111000100010101000
11.111110110100100110110001100110
11.111101100010110110101101011000
00.000010001101101000110111100100
00.000000011000101100100101011000
11.111111101000110111001000000000
