11.111001110111010110101010111000
11.111100101001101000111010100100
11.111001001011001100110000010000
11.111010011000100001101101101000
11.111100101110111001110001100100
11.111010000100000110111000011000
11.111111011100110001110111010001
00.000000011111110111001101010100
11.111101000100110101111000110100
00.000011000101100000000101110000
11.111110001000011110000111110110
11.111111101011111010011000010110
11.111010111111111110111101001000
00.000011100010101011000001010100
11.110110010011001100010101100000
11.111001010000011101110000000000
11.111101000011001001111110100000
11.111100110100001110010110100100
11.111101000010000110111110101100
11.111001100101001001010011101000
11.111111110111001000000111010101
11.111111001011001101101100111101
11.111001101000000011100001110000
11.111110010111000100110101110100
11.111010111001101001010011011000
00.000010011001110111100100110100
11.111011000100000001110010101000
11.111110011110011000011111011110
11.110101111100111010100100010000
11.111111000100010000000111001010
00.000001010011101010111010010000
11.111100000001001100010010101100
11.111101001110001011010101101000
11.111101010110011101111100110100
11.111100110011100110011001000100
11.111111011001111001001000111010
00.000000010011000101000011000011
11.111011110011001100100010001000
11.110111100111101001101101000000
11.111011010111110111000011110000
11.111101001010000001110010110000
11.111101111011000111010001010000
11.111100100010001100000100100000
11.111011000000000111011101101000
11.111011010110001000001000010000
11.111011001111000011001001111000
11.111010000001100111110110001000
11.111111000101000000101100110011
11.111101101110011100001001011100
11.111110100100111011000010000010
11.111000000011101100101010100000
11.111100111011010001111010110000
11.111100100011001010000001111100
11.111111110111100000010111001101
00.000000011001110100011001001100
11.111110010101000000101000101000
00.000001000000001110100100101000
11.111010100001000001100000101000
11.111111101110111000101111000001
11.111010011010011011011101010000
11.111010001001101110001001010000
00.000001000000100101010000010110
00.000010010100101100111000011000
11.111110010101110010110101111110
