00000001001001011001100010110000
00001011000110100010011011010000
11111101100111011000101001110000
11111100100101010001110111110000
11111010111001111000100010101000
11111110110100100110110001100110
11111101100010110110101101011000
00000010001101101000110111100100
00000000011000101100100101011000
11111111101000110111001000000000
